0
10001100000
1101010110
10001100010
1000111010
1010100111
1110110100
101111110101
100100101000
110000001000
11111111101
100110001111
110001101010
1010100100
111111011
1011001111
101100111
1111111
1001011000
111110101101
1111000000
10001010011
111110100101
10010001001
10011011
111000001101
111001100
1000010000
110111110101
1001010000
111011010010
10101110
1111001111
10011100010
1001001
10000001001
100011111
110011111010
10010
11111011
110010001000
100001111
110110100010
101001111
10111010101
10111111101
110001000
10100101010
1001000100
1001100
10010010010
10100010010
1110110
10100111111
100110000
